{"HiddenLayer":[0.602165084187565,0.9455005608150839,0.3265893072259181,0.2800704207120358,0.17660794251835144,0.6415710054139803,0.34642721147160743,0.44306493459020885,0.47476301283571853,0.5164549887048164,0.6344405939465441,0.2663948886572552,0.2576736769200539,0.5510941021990234,0.2680697341817276,0.33461953917740683,0.29085302824029596,0.19454886027158522,0.2165577183795134,0.3380115339545365,0.48734959667527494,0.41305520821324987,0.21779672576827838,0.4228873628940976,0.6888727737378568,1],"InputLayer":[0.38633991306467974,0.5395231930046032,0.2440159309831888,1],"OutputLayer":[0.887367896349942,0.2802761918367619,0.9214317939646179,0.9814796176906116,0.2750287331324494,0.5387584904719331,0.17081597832000078,0.13169294029871978,0.7276144236237536,0.7357619596675938,0.15208353859549067],"WeightHidden":[[0.9485651476931152,-1.10234459063387,1.576239087032407,0.25757005752647977],[-6.209043268377707,-0.3236242770344391,1.712070349445147,5.012337732611209],[-0.6141655277148946,-0.8877252561281199,-1.172137565133831,0.2787584958537895],[-1.1609749759191672,0.07199912033238468,-0.8717027845901499,-0.32140913141146016],[2.8417023295655763,0.06886601761595103,-1.419319955461703,-2.3296178980745568],[0.5337015093848209,-0.1636106840848106,1.6320300823353964,0.0654134068225174],[-1.4904518819039638,-0.6923330567123376,0.6624810667956755,0.15346003464951244],[-2.073806816244622,-0.07542461540979054,1.3226830605637927,0.2912443784004084],[1.0095243025430838,0.22963638409179704,-1.1206209241143947,-0.34199791634508364],[0.938090785244678,1.8258733465097086,-0.9507619664157277,-1.0504471613915787],[3.7211664306818757,-2.1095023118940297,6.826041662191502,-1.416370815473631],[-0.2832237438320331,0.6888065464441571,-2.114166228229028,-0.7591649360732255],[0.1161372269466452,0.01961683061342661,-0.10653586018172606,-1.087715499550009],[-0.7512483609059744,0.5809873104446922,-0.03589602562150642,0.1905485052368006],[-1.5153452795533993,-1.2642002255120757,1.4635762950042186,-0.09354455821586971],[-1.3263068574240497,-0.33629550638987055,1.186710075250365,-0.2827087738583521],[0.4849671679738258,-0.33157567861100734,-0.5893512853703654,-0.7561774590030681],[-1.0818598312490921,1.9010240944954453,-3.519899017412789,-1.1687548680515836],[-1.1356756635202456,-0.9123554971331467,-0.8998151839125008,-0.1350267522023931],[0.23590630477175908,-0.4975421202426724,-0.2469444337143192,-0.434679475787168],[-2.660099135269073,0.7223324978545661,-0.3065331178993568,0.6632141360762047],[-0.46978926178989977,0.4963450831007822,-1.096861315013335,-0.16983541857367704],[-0.41563757202145,-0.07670161970980227,-1.1781948548131553,-0.7889977439594384],[-1.3253256548461179,-1.83496993963515,0.048630228845255544,1.1800049144387952],[0.9571038465452718,-0.4924053824976129,3.4067713616174085,-0.14121908065644606],[-0.4333052531880748,-0.04564536673702524,-0.4644212975601366,0.888220581317335]],"WeightOutput":[[0.03190715722149984,0.5870412038179251,0.2964258919643032,-0.07043842506107269,-0.5965126419401802,0.1050544673073809,-0.49140411518335225,-1.001362022461511,0.9038403631236598,0.5174667606711488,0.3505568017131555,1.007956559958657,0.29758461331295466,-0.7638911089945322,-0.15785134270683426,1.1223847490478869,0.011357391814566182,0.11104744745484041,0.02364528498420862,0.6884697786284762,-0.16080016708817743,0.8083958939457544,-0.8745194923447986,0.8948330134909426,0.6641813672559757,-0.27501996429454956],[0.2588871883496295,1.0360534310268008,-0.42444849417466973,-0.2240958852004431,0.30396352948482347,-1.1600290707101681,-0.4313623595622282,0.0582352189902872,0.7708329697653303,0.020233104153563726,-0.23346920665503687,-0.9647898810116017,-0.7310465749820055,-0.16627139354989545,0.0029258536328377344,-0.43530409766476996,-0.42931248437079894,-0.0800166331562764,-0.3513431545144505,-0.24041503469926037,-0.5344661650398776,-0.19033985232252626,-0.1405323226616358,-0.027657297313528534,-0.19349466485432043,0.20488100947316337],[0.41922288096307936,-0.06271394773502617,0.5849358917822671,-0.3864435425598252,-0.14670592222254203,0.6529608758042356,-0.5889220613012403,-0.10345764838012306,-0.8326341872683386,0.26033624737392413,0.06181545072073489,-0.9232180813391618,1.1064078751866098,1.1287450140994122,-0.38782707474405564,0.06574061507133962,-0.7083833960964091,0.2733822326838835,-0.8586270853769205,0.7256794425790332,0.6491307759429844,0.9110741647119995,-0.11252993930311539,-0.17407099404934018,-0.1344450693732938,1.276801303465234],[-1.1986582715953316,5.1748043270680455,0.5471857205468742,0.9539885378950156,-2.130253102704284,-1.0947205730593417,1.4573008841201547,1.4395919356799254,-0.4595074206243614,-0.6222686197215376,-5.310079610147655,1.0318689139621762,-0.12604547715687883,0.2042655519980143,0.5286585939173077,0.5867639208196024,-0.10861898426991955,2.4259489071788223,0.7768686313881485,0.07428655337147115,2.163691080503077,0.7786292598309094,0.6558609894691341,1.1655584646678285,-1.6992269736446832,1.0358471617563272],[-0.7320425961692139,-0.183634528391014,-0.3288545064437363,-0.26765157475714524,-0.5903911551330466,0.3418440381307176,-0.0593814306780513,-0.8732604191772219,-0.730046698322113,0.7563920019621491,-0.13641721213535885,0.04871738986550961,-0.6200930435486007,-0.6793944320583553,0.704705998801182,0.5714809624433953,-0.793716421129242,-0.45094426272202753,-0.2579165113257179,-0.36436056893930846,-0.6667640322319863,1.0854175111068451,0.5801763508724952,0.6416906326713824,-0.11876384830663704,0.3620939992570626],[0.4008416319187582,0.2293811556978309,0.844399758325811,-0.7774274675822221,0.5706838701508289,0.5290926925567824,0.6350856592083152,0.20416140806325203,-0.26486267760972626,0.3276590256742286,-0.060997690306112386,0.2406251014326723,0.5149917483674353,0.6671259583412406,-0.1292408155293557,0.40913791240443176,-0.9060729267095148,-0.1526882802760677,-0.22971169658180615,-0.16776038237425256,0.3650115184266083,-0.42164528342950836,0.19224037680898093,-1.0309014295482017,-0.28541098742111304,-0.7963127068855089],[0.23529363218456179,0.02761018472858098,-0.4686334393621476,-0.6933828359539896,-0.35923186910479843,-0.7483409253396569,0.5259408658982545,-0.047990410267308596,0.7872389334770697,0.6510493642770228,-0.5661055311881,-0.045459227252465415,-0.3193790493440661,0.2572588874657346,-0.24994803902616294,-0.1394597642073878,-0.8913248095099046,-1.117629414599716,0.8264815885887512,-0.3924335105167792,-0.5632368880817483,-0.08466129967180512,-0.8782579925591859,0.5095567641836477,-0.11375197665795964,-0.5083146547997316],[-0.25083771844101155,-3.5459043596188407,-0.1462958174433325,-0.20698018108191604,2.9277660675339665,-0.011770168439708028,-1.0433009366192505,-1.8851712153305866,2.1156638656211926,2.9403165174986126,1.143634590619542,1.8563647123691929,0.2794497680365331,0.536960566000166,-2.6720292197496485,-1.469392136173141,0.6763891908603052,2.004707963009084,-0.5655725756653212,0.5493254750880696,-1.3810453027533942,1.576065203150049,0.6078764222543044,-1.609257583034312,-1.2551705826047697,0.28931670662136516],[0.3545211516831783,-0.4241607359079781,0.31523689098532653,0.05299444470766788,-0.11640707443934836,-0.39490998446927134,0.8489849378869743,0.32447673004519245,0.21586011324004623,-0.3598445101341679,0.04584118417548551,0.06971608044442665,0.06841000699728592,0.4607878860686738,-0.45808261352211205,0.5546095669633817,1.0539124556132018,0.5711368829056414,-0.6777547110821616,-0.3233175117642059,0.6002288686913242,-0.5968175012704119,0.9722308566146981,-0.8786360878592236,0.7666544379160203,0.013027641153840128],[0.30164781842794475,-0.4084307933063733,0.6963891512526054,0.41265037485611034,0.18843826635152147,-0.024291978900254807,-0.4023982605507787,-0.5793762758097869,-0.983819730477224,-0.06813798037821163,0.04746091492504782,0.29932008121010495,0.25805122182176693,0.763845385906317,0.5950883259514002,0.35684999186116734,0.7138615249282821,0.5329522294746409,-0.2934988787747316,0.04510017851388602,0.662225150511657,-0.13845651915546425,-0.047981533157708534,-0.2684739435948119,0.6800216226176471,0.016473331919922],[-0.04797060519664035,-0.4500491346887654,0.9145135307588024,1.0661028997241513,-1.0397783710214605,0.3121686995810746,-0.5489768229458847,-0.3709575693411263,-0.8052900753370866,-0.3674842644262165,0.34818136772395936,0.729614750618606,0.6322302414287408,-0.5059716234388794,0.3789453038684981,-0.07947658155753148,0.2733385175146199,-0.26051152709491243,0.4922096591508931,0.4987979762674885,-0.3954684675194316,-0.6401338434435491,0.8196036781382358,-0.8319231672308253,-0.594745038731951,-0.5894119166397824]],"ErrOutput":[-0.0017986316167468708,-0.005512652848889299,0.00037119391938156276,0.09259061769061161,-0.0009862396524742967,-0.0003535918889149281,-0.00009174092534794398,0.020581940298719778,0.0025093275931536985,0.0016525307490493635,0.00013278053878568175],"ErrHidden":[-0.0025121937111784345,-0.0012289371180465897,0.0014038426351051295,0.0016771586792573797,0.0031253468757621223,-0.0008845759114162574,0.0007823326458806869,-0.0017777593215187611,0.0030974743715026683,0.005370497352210972,-0.0059640889247063395,0.007085553889555121,0.001443210810846997,0.0024975646580749195,-0.005538063910505134,-0.001943808084859919,0.002870683011557128,0.009444730253429507,-0.000022852648225275077,0.0015345899821548313,0.001643143443965843,0.004582919147391853,0.003207489497677247,-0.0025398558703847874,-0.005082500667407188,0],"LastChangeHidden":[[0.0002777065588397454,0.00026020526750465526,0.00003215638008574394,0.000313367353968861],[-0.0013422129967798151,-0.0013622157140351374,-0.0002832100943657088,-0.001859458033154633],[-0.00008896360144113944,-0.00007896252061842068,-0.000005693260796150037,-0.00008681887722476414],[-0.00015115748883823296,-0.0001411589566037146,-0.000017170226900590452,-0.00016930617498315184],[0.0005801374880136182,0.0006021616423588954,0.00014277143884199186,0.0008526832458105857],[0.0002731045951775056,0.0002697447519716958,0.00004810980298938471,0.00035331944593953513],[-0.0002420720192373503,-0.00023885323387376234,-0.000043212512869542915,-0.00031342437764378004],[-0.0003307389722906411,-0.00034903088817283027,-0.0000898219516988117,-0.0005067519304218779],[0.00016426001381052337,0.00019209317900369382,0.00006937797928374075,0.0003157540334770606],[0.0002436808125389798,0.00029052032393082065,0.0001128997582847808,0.0004905947426393697],[0.0011491619226402482,0.0011122623076387625,0.0001847711652642319,0.0014239230066373752],[-0.00014581647620404362,-0.00009782668275686219,0.00002765944377881876,-0.00004006571533376666],[0.00005259805608339997,0.00006347123685968054,0.000022311502353585075,0.00010478732772912918],[-0.0000023685626287013272,0.000018967600672605686,0.000026525989993928006,0.00006829825485435403],[-0.00015620777658636146,-0.00019385547127219184,-0.00008255806790322435,-0.0003406791509297578],[-0.00013783290871489186,-0.0001530823224356381,-0.00004958241114775033,-0.00023976396841810085],[0.00007962104429516345,0.0001015989464527425,0.000041998328707245925,0.00017861537629545668],[-0.00040229590962960883,-0.0003527422441970792,-0.000023755455143054653,-0.000382321567865292],[-0.00010571996447305953,-0.0001072896237359398,-0.000022224382243541536,-0.0001463499252527412],[0.000006551839889985389,0.000018344541832073043,0.00001658956335801721,0.00004875324444805301],[-0.0004655236504876991,-0.0004564616051556859,-0.00008058168515109789,-0.0005944683858697353],[-0.00013307287301908186,-0.0000972356581833608,0.000021770787813424953,-0.00005523200206886239],[-0.00007451212033909457,-0.00005644731888149582,0.000008139770677410643,-0.0000394710948003444],[-0.00028685948161426993,-0.0003119674224784102,-0.000087219157835484,-0.00046760110425727],[0.0003483859774080645,0.0003130071106427225,0.000027935025585634898,0.0003537002356881349],[0,0,0,0]],"LastChangeOutput":[[-0.000035427843297380336,-0.000050477160774985134,-0.000017670426675037673,-0.000014958354435523304,-0.00001238173732332393,-0.000037559416112039943,-0.000018486443711200315,-0.000023560489731978737,-0.000028068173735231577,-0.000030728129569370927,-0.00003807038177449985,-0.000015007732481023227,-0.000014848420179380512,-0.000030816003321056915,-0.000014494456680821338,-0.00001821999150372747,-0.000016919022810082746,-0.000011024893639403794,-0.000011373161227233108,-0.000019435657817466036,-0.00002519287925272404,-0.0000230046628621908,-0.00001199750618677418,-0.000022471855121645787,-0.00004026812983822298,-0.00005730048662106898],[-0.0001788312134103941,-0.00027436111502449154,-0.00009553175713763143,-0.00008173006794911208,-0.000056111616493195874,-0.00019053781017430672,-0.00010028576815871207,-0.00012809383964658473,-0.00014254920312639703,-0.0001557224461068487,-0.00018957090916950982,-0.00007932809185792258,-0.00007651158063378343,-0.00016246675246098214,-0.00007735470769843862,-0.00009720108075911842,-0.00008669513538262394,-0.00005819942610066189,-0.00006278182620678331,-0.00010019804362817882,-0.00014086686373849456,-0.00012211449243452373,-0.00006417114658926944,-0.000122273442265295,-0.00020434966306100323,-0.00029628727370017884],[0.0000021544819835796008,0.000004538769953289013,0.0000015087080707739203,0.0000013369347532085777,1.6912797597480442e-7,0.0000023341998601394982,0.0000016679514281884207,0.000002152689453942023,0.0000016494321165872652,0.0000017449188706154229,0.0000020999484111822107,0.0000010883429794320198,9.867651399080937e-7,0.000002321492738064763,0.0000012547318176285246,0.0000015311200614986907,0.0000010764180802844014,7.778154991909847e-7,0.0000010794123583506,0.0000013054620254259627,0.000002518199793792995,0.0000017545697372571015,9.555852051908651e-7,0.0000020577280785994022,0.0000025220234015166522,0.000003905564300235292],[-0.0006770856854109511,-0.0005751265460205395,-0.0002862463982786955,-0.00023384243939598553,-0.0005509169338248391,-0.0007366727180925796,-0.00017788204763222016,-0.0002107807844640417,-0.0007394328241452448,-0.0008801977860185816,-0.0008157802893098913,-0.0003818751336175267,-0.0003126286869334183,-0.0005800739144645041,-0.00008807166418608404,-0.0001894680284561875,-0.000386495665986156,-0.00031062137092460453,-0.00013844327870955232,-0.0003899793231386953,-0.00028487211558802974,-0.0004897830920946558,-0.0002384197238640224,-0.0002042561987470366,-0.0007630519419826681,-0.0011491480235855346],[-0.000022124917946200667,-0.00003971210860591488,-0.000013775639634348513,-0.000012031768422035265,-0.000005280708196915286,-0.000023897062316610817,-0.000014418667025306713,-0.000018482101118072645,-0.00001815350770533945,-0.00001980942288976972,-0.000022731817919290338,-0.000011064735330412267,-0.000009997064846489773,-0.00002229185167130687,-0.000010679894910148907,-0.000013502748351624076,-0.000011212236853625841,-0.000008129940182333892,-0.00000938460108732142,-0.000013084403469422144,-0.000021556969758204547,-0.000017075734689844994,-0.000009099821812717482,-0.00001767543487740384,-0.00002562045707294622,-0.00003896494934390273],[-0.000016110046835810454,-0.00002365359916340296,-0.00000834954517589583,-0.000007109030835535708,-0.000005620375211376132,-0.00001715738114046235,-0.00000861331616452825,-0.000010975505746217021,-0.00001305205259544093,-0.000014351684674328231,-0.000017260457042704143,-0.000007146884135196361,-0.000006877980466451768,-0.00001441124649691225,-0.000006618028536459419,-0.000008408840260606348,-0.000007843786658145235,-0.00000528113459597768,-0.000005397006113842125,-0.00000898328256596901,-0.000012035809999317034,-0.000010873698547142333,-0.000005679704123789135,-0.000010477928109919112,-0.000018367422436527374,-0.00002653604151087172],[-0.000002987051004542513,-0.000004083193254774856,-0.0000014599335763704852,-0.0000012313057014555106,-0.0000011653555701017404,-0.0000031715767580381898,-0.0000014845223026241717,-0.0000018859183369960718,-0.000002435418816976194,-0.000002691376458970284,-0.000003244920174427347,-0.0000012917150828909418,-0.0000012590084474435412,-0.000002581986492316871,-0.0000011486490855155322,-0.000001471196621108341,-0.0000014460117479327016,-9.597061585818619e-7,-9.212868486091849e-7,-0.0000016412003140041502,-0.000002029796589187421,-0.000001945649695728687,-0.0000010078812612702037,-0.0000017996917259732684,-0.000003390643869648806,-0.000004836703986797169],[0.0003068168486507929,0.0005030700113610504,0.0001666598784317685,0.00014308486935807452,0.0000663886859071897,0.00032457347833510507,0.00018735873640526282,0.00024079891268866894,0.0002232551759480329,0.00023667383861720277,0.0003171937147738804,0.00012484329788935383,0.00012766036751993748,0.00027686698421441533,0.000150533332746257,0.00018104690853536592,0.0001416985816522161,0.00008850173566580067,0.00011369458028011596,0.00016914980262239704,0.00025645619755388684,0.00020191457386396186,0.00010769764260004022,0.00022946951337534576,0.0003508360981206171,0.0004999090643028948],[0.00007772145519544256,0.00012084142904399554,0.00004223222073656635,0.0000362174355555088,0.00002435071716559848,0.00008298493750755284,0.00004406037477568999,0.00005627272833208238,0.0000625978529485197,0.00006852337866175185,0.00008227133252770951,0.000035201979414790735,0.00003353636524546802,0.00007151111766510653,0.00003368717211611905,0.00004253045604030947,0.00003801566152083172,0.00002589488279340072,0.00002779855150161822,0.00004387484614804,0.0000625420415070143,0.00005400399496026151,0.00002839597805625936,0.00005373685020318503,0.00008894029994558788,0.00012985218544397017],[0.00005546080424287044,0.00008298049034654029,0.00002905724440910169,0.000024784778639709318,0.000018370853599297747,0.00005904606952652831,0.0000302960613978149,0.00003865319833966115,0.00004444619541007943,0.000048686378191459324,0.000059125720029071706,0.0000244670440428245,0.000023650515874608584,0.000049834691888836416,0.000023380422173229446,0.000029499740796936167,0.000026881127364519,0.000018001485514501286,0.00001893416321274293,0.0000309395882903368,0.00004232641300561143,0.00003748065487608786,0.000019634328611253733,0.000036894857107445805,0.0000632804825871165,0.00009142057243724397],[0.000003140658276738112,0.000004469874196996614,0.0000014764004884579393,0.000001239332851089525,8.776461750861632e-7,0.0000032847523182549357,0.0000016804671221598722,0.000002153850817815765,0.000002227066606811586,0.000002362375531928124,0.0000033321841090829032,0.0000011327213725877034,0.0000012449450084489507,0.00000257748662457411,0.0000014089357856920995,0.0000016785888527681724,0.000001394271705992973,7.983726846203311e-7,9.736263928425832e-7,0.0000016511717354458638,0.0000021396707586856304,0.0000018371225881670363,9.666966556095239e-7,0.000002048169303962651,0.0000035515157669710894,0.000004847677734033294]],"Regression":false,"Rate1":0.25,"Rate2":0.1}
1":0.25,"Rate2":0.1}
"Rate1":0.25,"Rate2":0.1}
ate1":0.25,"Rate2":0.1}
